#include "ch.h"
#include "hal.h"

#include "data_display.h"

//Screen commands
uint8_t screen_welcome[]        = {0x70, 0x61, 0x67, 0x65, 0x20, 0x30, 0xFF, 0xFF, 0xFF};  
uint8_t screen_main[]           = {0x70, 0x61, 0x67, 0x65, 0x20, 0x31, 0xFF, 0xFF, 0xFF};
uint8_t screen_overload_warn[]  = {0x70, 0x61, 0x67, 0x65, 0x20, 0x38, 0xFF, 0xFF, 0xFF};
uint8_t screen_overtemp_warn[]  = {0x70, 0x61, 0x67, 0x65, 0x20, 0x39, 0xFF, 0xFF, 0xFF};
uint8_t screen_overtilt_warn[]  = {0x70, 0x61, 0x67, 0x65, 0x20, 0x31, 0x30, 0xFF, 0xFF, 0xFF};
uint8_t screen_charge[]         = {0x70, 0x61, 0x67, 0x65, 0x20, 0x31, 0x31, 0xFF, 0xFF, 0xFF};
uint8_t screen_sysinfo[]        = {0x70, 0x61, 0x67, 0x65, 0x20, 0x31, 0x32, 0xFF, 0xFF, 0xFF};

uint8_t rxbutton_config_metric[]           =   {0x65, 0x07, 0x12, 0x00, 0xFF, 0xFF, 0xFF};
uint8_t rxbutton_config_imperial[]         =   {0x65, 0x07, 0x13, 0x00, 0xFF, 0xFF, 0xFF};
uint8_t rxbutton_config_meas[]             =   {0x65, 0x07, 0x17, 0x00, 0xFF, 0xFF, 0xFF};
uint8_t rxbutton_turt[]                    =   {0x65, 0x01, 0x04, 0x00, 0xFF, 0xFF, 0xFF}; 
uint8_t rxbutton_rabb[]                    =   {0x65, 0x01, 0x03, 0x00, 0xFF, 0xFF, 0xFF};
uint8_t rxbutton_config_date_yyyy_plus[]   =   {0x65, 0x07, 0x04, 0x00, 0xFF, 0xFF, 0xFF};
uint8_t rxbutton_config_date_yyyy_minus[]  =   {0x65, 0x07, 0x08, 0x00, 0xFF, 0xFF, 0xFF};
uint8_t rxbutton_config_date_mm_plus[]     =   {0x65, 0x07, 0x05, 0x00, 0xFF, 0xFF, 0xFF};
uint8_t rxbutton_config_date_mm_minus[]    =   {0x65, 0x07, 0x03, 0x00, 0xFF, 0xFF, 0xFF};
uint8_t rxbutton_config_date_dd_plus[]     =   {0x65, 0x07, 0x02, 0x00, 0xFF, 0xFF, 0xFF};
uint8_t rxbutton_config_date_dd_minus[]    =   {0x65, 0x07, 0x09, 0x00, 0xFF, 0xFF, 0xFF};
uint8_t rxbutton_config_time_hh_plus[]     =   {0x65, 0x07, 0x06, 0x01, 0xFF, 0xFF, 0xFF};
uint8_t rxbutton_config_time_hh_minus[]    =   {0x65, 0x07, 0x0A, 0x01, 0xFF, 0xFF, 0xFF};
uint8_t rxbutton_config_time_mm_plus[]     =   {0x65, 0x07, 0x07, 0x00, 0xFF, 0xFF, 0xFF};
uint8_t rxbutton_config_time_mm_minus[]    =   {0x65, 0x07, 0x0B, 0x00, 0xFF, 0xFF, 0xFF};

uint8_t overtilt_on[]     = {0x6D, 0x61, 0x69, 0x6E, 0x2E, 0x74, 0x2E, 0x76, 0x61, 0x6C, 0x3D, 0x31, 0xFF, 0xFF, 0xFF};
uint8_t overtilt_off[]    = {0x6D, 0x61, 0x69, 0x6E, 0x2E, 0x74, 0x2E, 0x76, 0x61, 0x6C, 0x3D, 0x30, 0xFF, 0xFF, 0xFF};
uint8_t init_weight_lbs[] = {0x76, 0x61, 0x32, 0x2E, 0x76, 0x61, 0x6C, 0x3D, 0x31, 0xff, 0xff, 0xff};
uint8_t init_weight_kgs[] = {0x76, 0x61, 0x32, 0x2E, 0x76, 0x61, 0x6C, 0x3D, 0x32, 0xff, 0xff, 0xff};

uint8_t lifting_spd[][17] =  {
    {0x6D, 0x61, 0x69, 0x6E, 0x2E, 0x76, 0x61, 0x30, 0x2E, 0x76, 0x61, 0x6C, 0x3D, 0x30, 0xff, 0xff, 0xff},
    {0x6D, 0x61, 0x69, 0x6E, 0x2E, 0x76, 0x61, 0x30, 0x2E, 0x76, 0x61, 0x6C, 0x3D, 0x31, 0xff, 0xff, 0xff},
    {0x6D, 0x61, 0x69, 0x6E, 0x2E, 0x76, 0x61, 0x30, 0x2E, 0x76, 0x61, 0x6C, 0x3D, 0x32, 0xff, 0xff, 0xff},
    {0x6D, 0x61, 0x69, 0x6E, 0x2E, 0x76, 0x61, 0x30, 0x2E, 0x76, 0x61, 0x6C, 0x3D, 0x33, 0xff, 0xff, 0xff}
};

uint8_t battery[][18] ={
    {0x6D, 0x61, 0x69, 0x6E, 0x2E, 0x62, 0x61, 0x74, 0x2E, 0x76, 0x61, 0x6C, 0x3D, 0x30, 0xFF, 0xFF, 0xFF},
    {0x6D, 0x61, 0x69, 0x6E, 0x2E, 0x62, 0x61, 0x74, 0x2E, 0x76, 0x61, 0x6C, 0x3D, 0x31, 0xFF, 0xFF, 0xFF},
    {0x6D, 0x61, 0x69, 0x6E, 0x2E, 0x62, 0x61, 0x74, 0x2E, 0x76, 0x61, 0x6C, 0x3D, 0x32, 0xFF, 0xFF, 0xFF},
    {0x6D, 0x61, 0x69, 0x6E, 0x2E, 0x62, 0x61, 0x74, 0x2E, 0x76, 0x61, 0x6C, 0x3D, 0x33, 0xFF, 0xFF, 0xFF},
    {0x6D, 0x61, 0x69, 0x6E, 0x2E, 0x62, 0x61, 0x74, 0x2E, 0x76, 0x61, 0x6C, 0x3D, 0x34, 0xFF, 0xFF, 0xFF},
    {0x6D, 0x61, 0x69, 0x6E, 0x2E, 0x62, 0x61, 0x74, 0x2E, 0x76, 0x61, 0x6C, 0x3D, 0x35, 0xFF, 0xFF, 0xFF},
    {0x6D, 0x61, 0x69, 0x6E, 0x2E, 0x62, 0x61, 0x74, 0x2E, 0x76, 0x61, 0x6C, 0x3D, 0x36, 0xFF, 0xFF, 0xFF},
    {0x6D, 0x61, 0x69, 0x6E, 0x2E, 0x62, 0x61, 0x74, 0x2E, 0x76, 0x61, 0x6C, 0x3D, 0x37, 0xFF, 0xFF, 0xFF},
    {0x6D, 0x61, 0x69, 0x6E, 0x2E, 0x62, 0x61, 0x74, 0x2E, 0x76, 0x61, 0x6C, 0x3D, 0x38, 0xFF, 0xFF, 0xFF},
    {0x6D, 0x61, 0x69, 0x6E, 0x2E, 0x62, 0x61, 0x74, 0x2E, 0x76, 0x61, 0x6C, 0x3D, 0x39, 0xFF, 0xFF, 0xFF},

    {0x6D, 0x61, 0x69, 0x6E, 0x2E, 0x62, 0x61, 0x74, 0x2E, 0x76, 0x61, 0x6C, 0x3D, 0x31, 0x30, 0xFF, 0xFF, 0xFF}
};

uint8_t clock_hh[][16] = {
    {0x6D, 0x61, 0x69, 0x6E, 0x2E, 0x68, 0x2E, 0x76, 0x61, 0x6C, 0x3D, 0x30, 0xFF, 0xFF, 0xFF},
    {0x6D, 0x61, 0x69, 0x6E, 0x2E, 0x68, 0x2E, 0x76, 0x61, 0x6C, 0x3D, 0x31, 0xFF, 0xFF, 0xFF},
    {0x6D, 0x61, 0x69, 0x6E, 0x2E, 0x68, 0x2E, 0x76, 0x61, 0x6C, 0x3D, 0x32, 0xFF, 0xFF, 0xFF},
    {0x6D, 0x61, 0x69, 0x6E, 0x2E, 0x68, 0x2E, 0x76, 0x61, 0x6C, 0x3D, 0x33, 0xFF, 0xFF, 0xFF},
    {0x6D, 0x61, 0x69, 0x6E, 0x2E, 0x68, 0x2E, 0x76, 0x61, 0x6C, 0x3D, 0x34, 0xFF, 0xFF, 0xFF},
    {0x6D, 0x61, 0x69, 0x6E, 0x2E, 0x68, 0x2E, 0x76, 0x61, 0x6C, 0x3D, 0x35, 0xFF, 0xFF, 0xFF},
    {0x6D, 0x61, 0x69, 0x6E, 0x2E, 0x68, 0x2E, 0x76, 0x61, 0x6C, 0x3D, 0x36, 0xFF, 0xFF, 0xFF},
    {0x6D, 0x61, 0x69, 0x6E, 0x2E, 0x68, 0x2E, 0x76, 0x61, 0x6C, 0x3D, 0x37, 0xFF, 0xFF, 0xFF},
    {0x6D, 0x61, 0x69, 0x6E, 0x2E, 0x68, 0x2E, 0x76, 0x61, 0x6C, 0x3D, 0x38, 0xFF, 0xFF, 0xFF},
    {0x6D, 0x61, 0x69, 0x6E, 0x2E, 0x68, 0x2E, 0x76, 0x61, 0x6C, 0x3D, 0x39, 0xFF, 0xFF, 0xFF},

    {0x6D, 0x61, 0x69, 0x6E, 0x2E, 0x68, 0x2E, 0x76, 0x61, 0x6C, 0x3D, 0x31, 0x30, 0xFF, 0xFF, 0xFF},
    {0x6D, 0x61, 0x69, 0x6E, 0x2E, 0x68, 0x2E, 0x76, 0x61, 0x6C, 0x3D, 0x31, 0x31, 0xFF, 0xFF, 0xFF},
    {0x6D, 0x61, 0x69, 0x6E, 0x2E, 0x68, 0x2E, 0x76, 0x61, 0x6C, 0x3D, 0x31, 0x32, 0xFF, 0xFF, 0xFF},
    {0x6D, 0x61, 0x69, 0x6E, 0x2E, 0x68, 0x2E, 0x76, 0x61, 0x6C, 0x3D, 0x31, 0x33, 0xFF, 0xFF, 0xFF},
    {0x6D, 0x61, 0x69, 0x6E, 0x2E, 0x68, 0x2E, 0x76, 0x61, 0x6C, 0x3D, 0x31, 0x34, 0xFF, 0xFF, 0xFF},
    {0x6D, 0x61, 0x69, 0x6E, 0x2E, 0x68, 0x2E, 0x76, 0x61, 0x6C, 0x3D, 0x31, 0x35, 0xFF, 0xFF, 0xFF},
    {0x6D, 0x61, 0x69, 0x6E, 0x2E, 0x68, 0x2E, 0x76, 0x61, 0x6C, 0x3D, 0x31, 0x36, 0xFF, 0xFF, 0xFF},
    {0x6D, 0x61, 0x69, 0x6E, 0x2E, 0x68, 0x2E, 0x76, 0x61, 0x6C, 0x3D, 0x31, 0x37, 0xFF, 0xFF, 0xFF},
    {0x6D, 0x61, 0x69, 0x6E, 0x2E, 0x68, 0x2E, 0x76, 0x61, 0x6C, 0x3D, 0x31, 0x38, 0xFF, 0xFF, 0xFF},
    {0x6D, 0x61, 0x69, 0x6E, 0x2E, 0x68, 0x2E, 0x76, 0x61, 0x6C, 0x3D, 0x31, 0x39, 0xFF, 0xFF, 0xFF},

    {0x6D, 0x61, 0x69, 0x6E, 0x2E, 0x68, 0x2E, 0x76, 0x61, 0x6C, 0x3D, 0x32, 0x30, 0xFF, 0xFF, 0xFF},
    {0x6D, 0x61, 0x69, 0x6E, 0x2E, 0x68, 0x2E, 0x76, 0x61, 0x6C, 0x3D, 0x32, 0x31, 0xFF, 0xFF, 0xFF},
    {0x6D, 0x61, 0x69, 0x6E, 0x2E, 0x68, 0x2E, 0x76, 0x61, 0x6C, 0x3D, 0x32, 0x32, 0xFF, 0xFF, 0xFF},
    {0x6D, 0x61, 0x69, 0x6E, 0x2E, 0x68, 0x2E, 0x76, 0x61, 0x6C, 0x3D, 0x32, 0x33, 0xFF, 0xFF, 0xFF}
};

uint8_t clock_mm[][16]  = {
    {0x6D, 0x61, 0x69, 0x6E, 0x2E, 0x6D, 0x2E, 0x76, 0x61, 0x6C, 0x3D, 0x30, 0xFF, 0xFF, 0xFF},
    {0x6D, 0x61, 0x69, 0x6E, 0x2E, 0x6D, 0x2E, 0x76, 0x61, 0x6C, 0x3D, 0x31, 0xFF, 0xFF, 0xFF},
    {0x6D, 0x61, 0x69, 0x6E, 0x2E, 0x6D, 0x2E, 0x76, 0x61, 0x6C, 0x3D, 0x32, 0xFF, 0xFF, 0xFF},
    {0x6D, 0x61, 0x69, 0x6E, 0x2E, 0x6D, 0x2E, 0x76, 0x61, 0x6C, 0x3D, 0x33, 0xFF, 0xFF, 0xFF},
    {0x6D, 0x61, 0x69, 0x6E, 0x2E, 0x6D, 0x2E, 0x76, 0x61, 0x6C, 0x3D, 0x34, 0xFF, 0xFF, 0xFF},
    {0x6D, 0x61, 0x69, 0x6E, 0x2E, 0x6D, 0x2E, 0x76, 0x61, 0x6C, 0x3D, 0x35, 0xFF, 0xFF, 0xFF},
    {0x6D, 0x61, 0x69, 0x6E, 0x2E, 0x6D, 0x2E, 0x76, 0x61, 0x6C, 0x3D, 0x36, 0xFF, 0xFF, 0xFF},
    {0x6D, 0x61, 0x69, 0x6E, 0x2E, 0x6D, 0x2E, 0x76, 0x61, 0x6C, 0x3D, 0x37, 0xFF, 0xFF, 0xFF},
    {0x6D, 0x61, 0x69, 0x6E, 0x2E, 0x6D, 0x2E, 0x76, 0x61, 0x6C, 0x3D, 0x38, 0xFF, 0xFF, 0xFF},
    {0x6D, 0x61, 0x69, 0x6E, 0x2E, 0x6D, 0x2E, 0x76, 0x61, 0x6C, 0x3D, 0x39, 0xFF, 0xFF, 0xFF},

    {0x6D, 0x61, 0x69, 0x6E, 0x2E, 0x6D, 0x2E, 0x76, 0x61, 0x6C, 0x3D, 0x31, 0x30, 0xFF, 0xFF, 0xFF},
    {0x6D, 0x61, 0x69, 0x6E, 0x2E, 0x6D, 0x2E, 0x76, 0x61, 0x6C, 0x3D, 0x31, 0x31, 0xFF, 0xFF, 0xFF},
    {0x6D, 0x61, 0x69, 0x6E, 0x2E, 0x6D, 0x2E, 0x76, 0x61, 0x6C, 0x3D, 0x31, 0x32, 0xFF, 0xFF, 0xFF},
    {0x6D, 0x61, 0x69, 0x6E, 0x2E, 0x6D, 0x2E, 0x76, 0x61, 0x6C, 0x3D, 0x31, 0x33, 0xFF, 0xFF, 0xFF},
    {0x6D, 0x61, 0x69, 0x6E, 0x2E, 0x6D, 0x2E, 0x76, 0x61, 0x6C, 0x3D, 0x31, 0x34, 0xFF, 0xFF, 0xFF},
    {0x6D, 0x61, 0x69, 0x6E, 0x2E, 0x6D, 0x2E, 0x76, 0x61, 0x6C, 0x3D, 0x31, 0x35, 0xFF, 0xFF, 0xFF},
    {0x6D, 0x61, 0x69, 0x6E, 0x2E, 0x6D, 0x2E, 0x76, 0x61, 0x6C, 0x3D, 0x31, 0x36, 0xFF, 0xFF, 0xFF},
    {0x6D, 0x61, 0x69, 0x6E, 0x2E, 0x6D, 0x2E, 0x76, 0x61, 0x6C, 0x3D, 0x31, 0x37, 0xFF, 0xFF, 0xFF},
    {0x6D, 0x61, 0x69, 0x6E, 0x2E, 0x6D, 0x2E, 0x76, 0x61, 0x6C, 0x3D, 0x31, 0x38, 0xFF, 0xFF, 0xFF},
    {0x6D, 0x61, 0x69, 0x6E, 0x2E, 0x6D, 0x2E, 0x76, 0x61, 0x6C, 0x3D, 0x31, 0x39, 0xFF, 0xFF, 0xFF},

    {0x6D, 0x61, 0x69, 0x6E, 0x2E, 0x6D, 0x2E, 0x76, 0x61, 0x6C, 0x3D, 0x32, 0x30, 0xFF, 0xFF, 0xFF},
    {0x6D, 0x61, 0x69, 0x6E, 0x2E, 0x6D, 0x2E, 0x76, 0x61, 0x6C, 0x3D, 0x32, 0x31, 0xFF, 0xFF, 0xFF},
    {0x6D, 0x61, 0x69, 0x6E, 0x2E, 0x6D, 0x2E, 0x76, 0x61, 0x6C, 0x3D, 0x32, 0x32, 0xFF, 0xFF, 0xFF},
    {0x6D, 0x61, 0x69, 0x6E, 0x2E, 0x6D, 0x2E, 0x76, 0x61, 0x6C, 0x3D, 0x32, 0x33, 0xFF, 0xFF, 0xFF},
    {0x6D, 0x61, 0x69, 0x6E, 0x2E, 0x6D, 0x2E, 0x76, 0x61, 0x6C, 0x3D, 0x32, 0x34, 0xFF, 0xFF, 0xFF},
    {0x6D, 0x61, 0x69, 0x6E, 0x2E, 0x6D, 0x2E, 0x76, 0x61, 0x6C, 0x3D, 0x32, 0x35, 0xFF, 0xFF, 0xFF},
    {0x6D, 0x61, 0x69, 0x6E, 0x2E, 0x6D, 0x2E, 0x76, 0x61, 0x6C, 0x3D, 0x32, 0x36, 0xFF, 0xFF, 0xFF},
    {0x6D, 0x61, 0x69, 0x6E, 0x2E, 0x6D, 0x2E, 0x76, 0x61, 0x6C, 0x3D, 0x32, 0x37, 0xFF, 0xFF, 0xFF},
    {0x6D, 0x61, 0x69, 0x6E, 0x2E, 0x6D, 0x2E, 0x76, 0x61, 0x6C, 0x3D, 0x32, 0x38, 0xFF, 0xFF, 0xFF},
    {0x6D, 0x61, 0x69, 0x6E, 0x2E, 0x6D, 0x2E, 0x76, 0x61, 0x6C, 0x3D, 0x32, 0x39, 0xFF, 0xFF, 0xFF},

    {0x6D, 0x61, 0x69, 0x6E, 0x2E, 0x6D, 0x2E, 0x76, 0x61, 0x6C, 0x3D, 0x33, 0x30, 0xFF, 0xFF, 0xFF},
    {0x6D, 0x61, 0x69, 0x6E, 0x2E, 0x6D, 0x2E, 0x76, 0x61, 0x6C, 0x3D, 0x33, 0x31, 0xFF, 0xFF, 0xFF},
    {0x6D, 0x61, 0x69, 0x6E, 0x2E, 0x6D, 0x2E, 0x76, 0x61, 0x6C, 0x3D, 0x33, 0x32, 0xFF, 0xFF, 0xFF},
    {0x6D, 0x61, 0x69, 0x6E, 0x2E, 0x6D, 0x2E, 0x76, 0x61, 0x6C, 0x3D, 0x33, 0x33, 0xFF, 0xFF, 0xFF},
    {0x6D, 0x61, 0x69, 0x6E, 0x2E, 0x6D, 0x2E, 0x76, 0x61, 0x6C, 0x3D, 0x33, 0x34, 0xFF, 0xFF, 0xFF},
    {0x6D, 0x61, 0x69, 0x6E, 0x2E, 0x6D, 0x2E, 0x76, 0x61, 0x6C, 0x3D, 0x33, 0x35, 0xFF, 0xFF, 0xFF},
    {0x6D, 0x61, 0x69, 0x6E, 0x2E, 0x6D, 0x2E, 0x76, 0x61, 0x6C, 0x3D, 0x33, 0x36, 0xFF, 0xFF, 0xFF},
    {0x6D, 0x61, 0x69, 0x6E, 0x2E, 0x6D, 0x2E, 0x76, 0x61, 0x6C, 0x3D, 0x33, 0x37, 0xFF, 0xFF, 0xFF},
    {0x6D, 0x61, 0x69, 0x6E, 0x2E, 0x6D, 0x2E, 0x76, 0x61, 0x6C, 0x3D, 0x33, 0x38, 0xFF, 0xFF, 0xFF},
    {0x6D, 0x61, 0x69, 0x6E, 0x2E, 0x6D, 0x2E, 0x76, 0x61, 0x6C, 0x3D, 0x33, 0x39, 0xFF, 0xFF, 0xFF},

    {0x6D, 0x61, 0x69, 0x6E, 0x2E, 0x6D, 0x2E, 0x76, 0x61, 0x6C, 0x3D, 0x34, 0x30, 0xFF, 0xFF, 0xFF},
    {0x6D, 0x61, 0x69, 0x6E, 0x2E, 0x6D, 0x2E, 0x76, 0x61, 0x6C, 0x3D, 0x34, 0x31, 0xFF, 0xFF, 0xFF},
    {0x6D, 0x61, 0x69, 0x6E, 0x2E, 0x6D, 0x2E, 0x76, 0x61, 0x6C, 0x3D, 0x34, 0x32, 0xFF, 0xFF, 0xFF},
    {0x6D, 0x61, 0x69, 0x6E, 0x2E, 0x6D, 0x2E, 0x76, 0x61, 0x6C, 0x3D, 0x34, 0x33, 0xFF, 0xFF, 0xFF},
    {0x6D, 0x61, 0x69, 0x6E, 0x2E, 0x6D, 0x2E, 0x76, 0x61, 0x6C, 0x3D, 0x34, 0x34, 0xFF, 0xFF, 0xFF},
    {0x6D, 0x61, 0x69, 0x6E, 0x2E, 0x6D, 0x2E, 0x76, 0x61, 0x6C, 0x3D, 0x34, 0x35, 0xFF, 0xFF, 0xFF},
    {0x6D, 0x61, 0x69, 0x6E, 0x2E, 0x6D, 0x2E, 0x76, 0x61, 0x6C, 0x3D, 0x34, 0x36, 0xFF, 0xFF, 0xFF},
    {0x6D, 0x61, 0x69, 0x6E, 0x2E, 0x6D, 0x2E, 0x76, 0x61, 0x6C, 0x3D, 0x34, 0x37, 0xFF, 0xFF, 0xFF},
    {0x6D, 0x61, 0x69, 0x6E, 0x2E, 0x6D, 0x2E, 0x76, 0x61, 0x6C, 0x3D, 0x34, 0x38, 0xFF, 0xFF, 0xFF},
    {0x6D, 0x61, 0x69, 0x6E, 0x2E, 0x6D, 0x2E, 0x76, 0x61, 0x6C, 0x3D, 0x34, 0x39, 0xFF, 0xFF, 0xFF},

    {0x6D, 0x61, 0x69, 0x6E, 0x2E, 0x6D, 0x2E, 0x76, 0x61, 0x6C, 0x3D, 0x35, 0x30, 0xFF, 0xFF, 0xFF},
    {0x6D, 0x61, 0x69, 0x6E, 0x2E, 0x6D, 0x2E, 0x76, 0x61, 0x6C, 0x3D, 0x35, 0x31, 0xFF, 0xFF, 0xFF},
    {0x6D, 0x61, 0x69, 0x6E, 0x2E, 0x6D, 0x2E, 0x76, 0x61, 0x6C, 0x3D, 0x35, 0x32, 0xFF, 0xFF, 0xFF},
    {0x6D, 0x61, 0x69, 0x6E, 0x2E, 0x6D, 0x2E, 0x76, 0x61, 0x6C, 0x3D, 0x35, 0x33, 0xFF, 0xFF, 0xFF},
    {0x6D, 0x61, 0x69, 0x6E, 0x2E, 0x6D, 0x2E, 0x76, 0x61, 0x6C, 0x3D, 0x35, 0x34, 0xFF, 0xFF, 0xFF},
    {0x6D, 0x61, 0x69, 0x6E, 0x2E, 0x6D, 0x2E, 0x76, 0x61, 0x6C, 0x3D, 0x35, 0x35, 0xFF, 0xFF, 0xFF},
    {0x6D, 0x61, 0x69, 0x6E, 0x2E, 0x6D, 0x2E, 0x76, 0x61, 0x6C, 0x3D, 0x35, 0x36, 0xFF, 0xFF, 0xFF},
    {0x6D, 0x61, 0x69, 0x6E, 0x2E, 0x6D, 0x2E, 0x76, 0x61, 0x6C, 0x3D, 0x35, 0x37, 0xFF, 0xFF, 0xFF},
    {0x6D, 0x61, 0x69, 0x6E, 0x2E, 0x6D, 0x2E, 0x76, 0x61, 0x6C, 0x3D, 0x35, 0x38, 0xFF, 0xFF, 0xFF},
    {0x6D, 0x61, 0x69, 0x6E, 0x2E, 0x6D, 0x2E, 0x76, 0x61, 0x6C, 0x3D, 0x35, 0x39, 0xFF, 0xFF, 0xFF}
};

uint8_t years[][16]  = {
    {0x6D, 0x61, 0x69, 0x6E, 0x2E, 0x79, 0x2E, 0x76, 0x61, 0x6C, 0x3D, 0x30, 0xFF, 0xFF, 0xFF},
    {0x6D, 0x61, 0x69, 0x6E, 0x2E, 0x79, 0x2E, 0x76, 0x61, 0x6C, 0x3D, 0x31, 0xFF, 0xFF, 0xFF},
    {0x6D, 0x61, 0x69, 0x6E, 0x2E, 0x79, 0x2E, 0x76, 0x61, 0x6C, 0x3D, 0x32, 0xFF, 0xFF, 0xFF},
    {0x6D, 0x61, 0x69, 0x6E, 0x2E, 0x79, 0x2E, 0x76, 0x61, 0x6C, 0x3D, 0x33, 0xFF, 0xFF, 0xFF},
    {0x6D, 0x61, 0x69, 0x6E, 0x2E, 0x79, 0x2E, 0x76, 0x61, 0x6C, 0x3D, 0x34, 0xFF, 0xFF, 0xFF},
    {0x6D, 0x61, 0x69, 0x6E, 0x2E, 0x79, 0x2E, 0x76, 0x61, 0x6C, 0x3D, 0x35, 0xFF, 0xFF, 0xFF},
    {0x6D, 0x61, 0x69, 0x6E, 0x2E, 0x79, 0x2E, 0x76, 0x61, 0x6C, 0x3D, 0x36, 0xFF, 0xFF, 0xFF},
    {0x6D, 0x61, 0x69, 0x6E, 0x2E, 0x79, 0x2E, 0x76, 0x61, 0x6C, 0x3D, 0x37, 0xFF, 0xFF, 0xFF},
    {0x6D, 0x61, 0x69, 0x6E, 0x2E, 0x79, 0x2E, 0x76, 0x61, 0x6C, 0x3D, 0x38, 0xFF, 0xFF, 0xFF},
    {0x6D, 0x61, 0x69, 0x6E, 0x2E, 0x79, 0x2E, 0x76, 0x61, 0x6C, 0x3D, 0x39, 0xFF, 0xFF, 0xFF},

    {0x6D, 0x61, 0x69, 0x6E, 0x2E, 0x79, 0x2E, 0x76, 0x61, 0x6C, 0x3D, 0x31, 0x30, 0xFF, 0xFF, 0xFF},
    {0x6D, 0x61, 0x69, 0x6E, 0x2E, 0x79, 0x2E, 0x76, 0x61, 0x6C, 0x3D, 0x31, 0x31, 0xFF, 0xFF, 0xFF},
    {0x6D, 0x61, 0x69, 0x6E, 0x2E, 0x79, 0x2E, 0x76, 0x61, 0x6C, 0x3D, 0x31, 0x32, 0xFF, 0xFF, 0xFF},
    {0x6D, 0x61, 0x69, 0x6E, 0x2E, 0x79, 0x2E, 0x76, 0x61, 0x6C, 0x3D, 0x31, 0x33, 0xFF, 0xFF, 0xFF},
    {0x6D, 0x61, 0x69, 0x6E, 0x2E, 0x79, 0x2E, 0x76, 0x61, 0x6C, 0x3D, 0x31, 0x34, 0xFF, 0xFF, 0xFF},
    {0x6D, 0x61, 0x69, 0x6E, 0x2E, 0x79, 0x2E, 0x76, 0x61, 0x6C, 0x3D, 0x31, 0x35, 0xFF, 0xFF, 0xFF},
    {0x6D, 0x61, 0x69, 0x6E, 0x2E, 0x79, 0x2E, 0x76, 0x61, 0x6C, 0x3D, 0x31, 0x36, 0xFF, 0xFF, 0xFF},
    {0x6D, 0x61, 0x69, 0x6E, 0x2E, 0x79, 0x2E, 0x76, 0x61, 0x6C, 0x3D, 0x31, 0x37, 0xFF, 0xFF, 0xFF},
    {0x6D, 0x61, 0x69, 0x6E, 0x2E, 0x79, 0x2E, 0x76, 0x61, 0x6C, 0x3D, 0x31, 0x38, 0xFF, 0xFF, 0xFF},
    {0x6D, 0x61, 0x69, 0x6E, 0x2E, 0x79, 0x2E, 0x76, 0x61, 0x6C, 0x3D, 0x31, 0x39, 0xFF, 0xFF, 0xFF},

    {0x6D, 0x61, 0x69, 0x6E, 0x2E, 0x79, 0x2E, 0x76, 0x61, 0x6C, 0x3D, 0x32, 0x30, 0xFF, 0xFF, 0xFF},
    {0x6D, 0x61, 0x69, 0x6E, 0x2E, 0x79, 0x2E, 0x76, 0x61, 0x6C, 0x3D, 0x32, 0x31, 0xFF, 0xFF, 0xFF},
    {0x6D, 0x61, 0x69, 0x6E, 0x2E, 0x79, 0x2E, 0x76, 0x61, 0x6C, 0x3D, 0x32, 0x32, 0xFF, 0xFF, 0xFF},
    {0x6D, 0x61, 0x69, 0x6E, 0x2E, 0x79, 0x2E, 0x76, 0x61, 0x6C, 0x3D, 0x32, 0x33, 0xFF, 0xFF, 0xFF},
    {0x6D, 0x61, 0x69, 0x6E, 0x2E, 0x79, 0x2E, 0x76, 0x61, 0x6C, 0x3D, 0x32, 0x34, 0xFF, 0xFF, 0xFF},
    {0x6D, 0x61, 0x69, 0x6E, 0x2E, 0x79, 0x2E, 0x76, 0x61, 0x6C, 0x3D, 0x32, 0x35, 0xFF, 0xFF, 0xFF},
    {0x6D, 0x61, 0x69, 0x6E, 0x2E, 0x79, 0x2E, 0x76, 0x61, 0x6C, 0x3D, 0x32, 0x36, 0xFF, 0xFF, 0xFF},
    {0x6D, 0x61, 0x69, 0x6E, 0x2E, 0x79, 0x2E, 0x76, 0x61, 0x6C, 0x3D, 0x32, 0x37, 0xFF, 0xFF, 0xFF},
    {0x6D, 0x61, 0x69, 0x6E, 0x2E, 0x79, 0x2E, 0x76, 0x61, 0x6C, 0x3D, 0x32, 0x38, 0xFF, 0xFF, 0xFF},
    {0x6D, 0x61, 0x69, 0x6E, 0x2E, 0x79, 0x2E, 0x76, 0x61, 0x6C, 0x3D, 0x32, 0x39, 0xFF, 0xFF, 0xFF},

    {0x6D, 0x61, 0x69, 0x6E, 0x2E, 0x79, 0x2E, 0x76, 0x61, 0x6C, 0x3D, 0x33, 0x30, 0xFF, 0xFF, 0xFF},
    {0x6D, 0x61, 0x69, 0x6E, 0x2E, 0x79, 0x2E, 0x76, 0x61, 0x6C, 0x3D, 0x33, 0x31, 0xFF, 0xFF, 0xFF},
    {0x6D, 0x61, 0x69, 0x6E, 0x2E, 0x79, 0x2E, 0x76, 0x61, 0x6C, 0x3D, 0x33, 0x32, 0xFF, 0xFF, 0xFF},
    {0x6D, 0x61, 0x69, 0x6E, 0x2E, 0x79, 0x2E, 0x76, 0x61, 0x6C, 0x3D, 0x33, 0x33, 0xFF, 0xFF, 0xFF},
    {0x6D, 0x61, 0x69, 0x6E, 0x2E, 0x79, 0x2E, 0x76, 0x61, 0x6C, 0x3D, 0x33, 0x34, 0xFF, 0xFF, 0xFF},
    {0x6D, 0x61, 0x69, 0x6E, 0x2E, 0x79, 0x2E, 0x76, 0x61, 0x6C, 0x3D, 0x33, 0x35, 0xFF, 0xFF, 0xFF},
    {0x6D, 0x61, 0x69, 0x6E, 0x2E, 0x79, 0x2E, 0x76, 0x61, 0x6C, 0x3D, 0x33, 0x36, 0xFF, 0xFF, 0xFF},
    {0x6D, 0x61, 0x69, 0x6E, 0x2E, 0x79, 0x2E, 0x76, 0x61, 0x6C, 0x3D, 0x33, 0x37, 0xFF, 0xFF, 0xFF},
    {0x6D, 0x61, 0x69, 0x6E, 0x2E, 0x79, 0x2E, 0x76, 0x61, 0x6C, 0x3D, 0x33, 0x38, 0xFF, 0xFF, 0xFF},
    {0x6D, 0x61, 0x69, 0x6E, 0x2E, 0x79, 0x2E, 0x76, 0x61, 0x6C, 0x3D, 0x33, 0x39, 0xFF, 0xFF, 0xFF},

    {0x6D, 0x61, 0x69, 0x6E, 0x2E, 0x79, 0x2E, 0x76, 0x61, 0x6C, 0x3D, 0x34, 0x30, 0xFF, 0xFF, 0xFF},
    {0x6D, 0x61, 0x69, 0x6E, 0x2E, 0x79, 0x2E, 0x76, 0x61, 0x6C, 0x3D, 0x34, 0x31, 0xFF, 0xFF, 0xFF},
    {0x6D, 0x61, 0x69, 0x6E, 0x2E, 0x79, 0x2E, 0x76, 0x61, 0x6C, 0x3D, 0x34, 0x32, 0xFF, 0xFF, 0xFF},
    {0x6D, 0x61, 0x69, 0x6E, 0x2E, 0x79, 0x2E, 0x76, 0x61, 0x6C, 0x3D, 0x34, 0x33, 0xFF, 0xFF, 0xFF},
    {0x6D, 0x61, 0x69, 0x6E, 0x2E, 0x79, 0x2E, 0x76, 0x61, 0x6C, 0x3D, 0x34, 0x34, 0xFF, 0xFF, 0xFF},
    {0x6D, 0x61, 0x69, 0x6E, 0x2E, 0x79, 0x2E, 0x76, 0x61, 0x6C, 0x3D, 0x34, 0x35, 0xFF, 0xFF, 0xFF},
    {0x6D, 0x61, 0x69, 0x6E, 0x2E, 0x79, 0x2E, 0x76, 0x61, 0x6C, 0x3D, 0x34, 0x36, 0xFF, 0xFF, 0xFF},
    {0x6D, 0x61, 0x69, 0x6E, 0x2E, 0x79, 0x2E, 0x76, 0x61, 0x6C, 0x3D, 0x34, 0x37, 0xFF, 0xFF, 0xFF},
    {0x6D, 0x61, 0x69, 0x6E, 0x2E, 0x79, 0x2E, 0x76, 0x61, 0x6C, 0x3D, 0x34, 0x38, 0xFF, 0xFF, 0xFF},
    {0x6D, 0x61, 0x69, 0x6E, 0x2E, 0x79, 0x2E, 0x76, 0x61, 0x6C, 0x3D, 0x34, 0x39, 0xFF, 0xFF, 0xFF},

    {0x6D, 0x61, 0x69, 0x6E, 0x2E, 0x79, 0x2E, 0x76, 0x61, 0x6C, 0x3D, 0x35, 0x30, 0xFF, 0xFF, 0xFF},
    {0x6D, 0x61, 0x69, 0x6E, 0x2E, 0x79, 0x2E, 0x76, 0x61, 0x6C, 0x3D, 0x35, 0x31, 0xFF, 0xFF, 0xFF},
    {0x6D, 0x61, 0x69, 0x6E, 0x2E, 0x79, 0x2E, 0x76, 0x61, 0x6C, 0x3D, 0x35, 0x32, 0xFF, 0xFF, 0xFF},
    {0x6D, 0x61, 0x69, 0x6E, 0x2E, 0x79, 0x2E, 0x76, 0x61, 0x6C, 0x3D, 0x35, 0x33, 0xFF, 0xFF, 0xFF},
    {0x6D, 0x61, 0x69, 0x6E, 0x2E, 0x79, 0x2E, 0x76, 0x61, 0x6C, 0x3D, 0x35, 0x34, 0xFF, 0xFF, 0xFF},
    {0x6D, 0x61, 0x69, 0x6E, 0x2E, 0x79, 0x2E, 0x76, 0x61, 0x6C, 0x3D, 0x35, 0x35, 0xFF, 0xFF, 0xFF},
    {0x6D, 0x61, 0x69, 0x6E, 0x2E, 0x79, 0x2E, 0x76, 0x61, 0x6C, 0x3D, 0x35, 0x36, 0xFF, 0xFF, 0xFF},
    {0x6D, 0x61, 0x69, 0x6E, 0x2E, 0x79, 0x2E, 0x76, 0x61, 0x6C, 0x3D, 0x35, 0x37, 0xFF, 0xFF, 0xFF},
    {0x6D, 0x61, 0x69, 0x6E, 0x2E, 0x79, 0x2E, 0x76, 0x61, 0x6C, 0x3D, 0x35, 0x38, 0xFF, 0xFF, 0xFF},
    {0x6D, 0x61, 0x69, 0x6E, 0x2E, 0x79, 0x2E, 0x76, 0x61, 0x6C, 0x3D, 0x35, 0x39, 0xFF, 0xFF, 0xFF},

    {0x6D, 0x61, 0x69, 0x6E, 0x2E, 0x79, 0x2E, 0x76, 0x61, 0x6C, 0x3D, 0x36, 0x30, 0xFF, 0xFF, 0xFF},
    {0x6D, 0x61, 0x69, 0x6E, 0x2E, 0x79, 0x2E, 0x76, 0x61, 0x6C, 0x3D, 0x36, 0x31, 0xFF, 0xFF, 0xFF},
    {0x6D, 0x61, 0x69, 0x6E, 0x2E, 0x79, 0x2E, 0x76, 0x61, 0x6C, 0x3D, 0x36, 0x32, 0xFF, 0xFF, 0xFF},
    {0x6D, 0x61, 0x69, 0x6E, 0x2E, 0x79, 0x2E, 0x76, 0x61, 0x6C, 0x3D, 0x36, 0x33, 0xFF, 0xFF, 0xFF},
    {0x6D, 0x61, 0x69, 0x6E, 0x2E, 0x79, 0x2E, 0x76, 0x61, 0x6C, 0x3D, 0x36, 0x34, 0xFF, 0xFF, 0xFF},
    {0x6D, 0x61, 0x69, 0x6E, 0x2E, 0x79, 0x2E, 0x76, 0x61, 0x6C, 0x3D, 0x36, 0x35, 0xFF, 0xFF, 0xFF},
    {0x6D, 0x61, 0x69, 0x6E, 0x2E, 0x79, 0x2E, 0x76, 0x61, 0x6C, 0x3D, 0x36, 0x36, 0xFF, 0xFF, 0xFF},
    {0x6D, 0x61, 0x69, 0x6E, 0x2E, 0x79, 0x2E, 0x76, 0x61, 0x6C, 0x3D, 0x36, 0x37, 0xFF, 0xFF, 0xFF},
    {0x6D, 0x61, 0x69, 0x6E, 0x2E, 0x79, 0x2E, 0x76, 0x61, 0x6C, 0x3D, 0x36, 0x38, 0xFF, 0xFF, 0xFF}
};

uint8_t months[][17]  = {
    {0x6D, 0x61, 0x69, 0x6E, 0x2E, 0x6D, 0x6F, 0x2E, 0x76, 0x61, 0x6C, 0x3D, 0x30, 0xFF, 0xFF, 0xFF},
    {0x6D, 0x61, 0x69, 0x6E, 0x2E, 0x6D, 0x6F, 0x2E, 0x76, 0x61, 0x6C, 0x3D, 0x31, 0xFF, 0xFF, 0xFF},
    {0x6D, 0x61, 0x69, 0x6E, 0x2E, 0x6D, 0x6F, 0x2E, 0x76, 0x61, 0x6C, 0x3D, 0x32, 0xFF, 0xFF, 0xFF},
    {0x6D, 0x61, 0x69, 0x6E, 0x2E, 0x6D, 0x6F, 0x2E, 0x76, 0x61, 0x6C, 0x3D, 0x33, 0xFF, 0xFF, 0xFF},
    {0x6D, 0x61, 0x69, 0x6E, 0x2E, 0x6D, 0x6F, 0x2E, 0x76, 0x61, 0x6C, 0x3D, 0x34, 0xFF, 0xFF, 0xFF},
    {0x6D, 0x61, 0x69, 0x6E, 0x2E, 0x6D, 0x6F, 0x2E, 0x76, 0x61, 0x6C, 0x3D, 0x35, 0xFF, 0xFF, 0xFF},
    {0x6D, 0x61, 0x69, 0x6E, 0x2E, 0x6D, 0x6F, 0x2E, 0x76, 0x61, 0x6C, 0x3D, 0x36, 0xFF, 0xFF, 0xFF},
    {0x6D, 0x61, 0x69, 0x6E, 0x2E, 0x6D, 0x6F, 0x2E, 0x76, 0x61, 0x6C, 0x3D, 0x37, 0xFF, 0xFF, 0xFF},
    {0x6D, 0x61, 0x69, 0x6E, 0x2E, 0x6D, 0x6F, 0x2E, 0x76, 0x61, 0x6C, 0x3D, 0x38, 0xFF, 0xFF, 0xFF},
    {0x6D, 0x61, 0x69, 0x6E, 0x2E, 0x6D, 0x6F, 0x2E, 0x76, 0x61, 0x6C, 0x3D, 0x39, 0xFF, 0xFF, 0xFF},

    {0x6D, 0x61, 0x69, 0x6E, 0x2E, 0x6D, 0x6F, 0x2E, 0x76, 0x61, 0x6C, 0x3D, 0x31, 0x30, 0xFF, 0xFF, 0xFF},
    {0x6D, 0x61, 0x69, 0x6E, 0x2E, 0x6D, 0x6F, 0x2E, 0x76, 0x61, 0x6C, 0x3D, 0x31, 0x31, 0xFF, 0xFF, 0xFF}
};

uint8_t days[][16]  = {
    {0x6D, 0x61, 0x69, 0x6E, 0x2E, 0x64, 0x2E, 0x76, 0x61, 0x6C, 0x3D, 0x30, 0xFF, 0xFF, 0xFF},
    {0x6D, 0x61, 0x69, 0x6E, 0x2E, 0x64, 0x2E, 0x76, 0x61, 0x6C, 0x3D, 0x31, 0xFF, 0xFF, 0xFF},
    {0x6D, 0x61, 0x69, 0x6E, 0x2E, 0x64, 0x2E, 0x76, 0x61, 0x6C, 0x3D, 0x32, 0xFF, 0xFF, 0xFF},
    {0x6D, 0x61, 0x69, 0x6E, 0x2E, 0x64, 0x2E, 0x76, 0x61, 0x6C, 0x3D, 0x33, 0xFF, 0xFF, 0xFF},
    {0x6D, 0x61, 0x69, 0x6E, 0x2E, 0x64, 0x2E, 0x76, 0x61, 0x6C, 0x3D, 0x34, 0xFF, 0xFF, 0xFF},
    {0x6D, 0x61, 0x69, 0x6E, 0x2E, 0x64, 0x2E, 0x76, 0x61, 0x6C, 0x3D, 0x35, 0xFF, 0xFF, 0xFF},
    {0x6D, 0x61, 0x69, 0x6E, 0x2E, 0x64, 0x2E, 0x76, 0x61, 0x6C, 0x3D, 0x36, 0xFF, 0xFF, 0xFF},
    {0x6D, 0x61, 0x69, 0x6E, 0x2E, 0x64, 0x2E, 0x76, 0x61, 0x6C, 0x3D, 0x37, 0xFF, 0xFF, 0xFF},
    {0x6D, 0x61, 0x69, 0x6E, 0x2E, 0x64, 0x2E, 0x76, 0x61, 0x6C, 0x3D, 0x38, 0xFF, 0xFF, 0xFF},
    {0x6D, 0x61, 0x69, 0x6E, 0x2E, 0x64, 0x2E, 0x76, 0x61, 0x6C, 0x3D, 0x39, 0xFF, 0xFF, 0xFF},

    {0x6D, 0x61, 0x69, 0x6E, 0x2E, 0x64, 0x2E, 0x76, 0x61, 0x6C, 0x3D, 0x31, 0x30, 0xFF, 0xFF, 0xFF},
    {0x6D, 0x61, 0x69, 0x6E, 0x2E, 0x64, 0x2E, 0x76, 0x61, 0x6C, 0x3D, 0x31, 0x31, 0xFF, 0xFF, 0xFF},
    {0x6D, 0x61, 0x69, 0x6E, 0x2E, 0x64, 0x2E, 0x76, 0x61, 0x6C, 0x3D, 0x31, 0x32, 0xFF, 0xFF, 0xFF},
    {0x6D, 0x61, 0x69, 0x6E, 0x2E, 0x64, 0x2E, 0x76, 0x61, 0x6C, 0x3D, 0x31, 0x33, 0xFF, 0xFF, 0xFF},
    {0x6D, 0x61, 0x69, 0x6E, 0x2E, 0x64, 0x2E, 0x76, 0x61, 0x6C, 0x3D, 0x31, 0x34, 0xFF, 0xFF, 0xFF},
    {0x6D, 0x61, 0x69, 0x6E, 0x2E, 0x64, 0x2E, 0x76, 0x61, 0x6C, 0x3D, 0x31, 0x35, 0xFF, 0xFF, 0xFF},
    {0x6D, 0x61, 0x69, 0x6E, 0x2E, 0x64, 0x2E, 0x76, 0x61, 0x6C, 0x3D, 0x31, 0x36, 0xFF, 0xFF, 0xFF},
    {0x6D, 0x61, 0x69, 0x6E, 0x2E, 0x64, 0x2E, 0x76, 0x61, 0x6C, 0x3D, 0x31, 0x37, 0xFF, 0xFF, 0xFF},
    {0x6D, 0x61, 0x69, 0x6E, 0x2E, 0x64, 0x2E, 0x76, 0x61, 0x6C, 0x3D, 0x31, 0x38, 0xFF, 0xFF, 0xFF},
    {0x6D, 0x61, 0x69, 0x6E, 0x2E, 0x64, 0x2E, 0x76, 0x61, 0x6C, 0x3D, 0x31, 0x39, 0xFF, 0xFF, 0xFF},

    {0x6D, 0x61, 0x69, 0x6E, 0x2E, 0x64, 0x2E, 0x76, 0x61, 0x6C, 0x3D, 0x32, 0x30, 0xFF, 0xFF, 0xFF},
    {0x6D, 0x61, 0x69, 0x6E, 0x2E, 0x64, 0x2E, 0x76, 0x61, 0x6C, 0x3D, 0x32, 0x31, 0xFF, 0xFF, 0xFF},
    {0x6D, 0x61, 0x69, 0x6E, 0x2E, 0x64, 0x2E, 0x76, 0x61, 0x6C, 0x3D, 0x32, 0x32, 0xFF, 0xFF, 0xFF},
    {0x6D, 0x61, 0x69, 0x6E, 0x2E, 0x64, 0x2E, 0x76, 0x61, 0x6C, 0x3D, 0x32, 0x33, 0xFF, 0xFF, 0xFF},
    {0x6D, 0x61, 0x69, 0x6E, 0x2E, 0x64, 0x2E, 0x76, 0x61, 0x6C, 0x3D, 0x32, 0x34, 0xFF, 0xFF, 0xFF},
    {0x6D, 0x61, 0x69, 0x6E, 0x2E, 0x64, 0x2E, 0x76, 0x61, 0x6C, 0x3D, 0x32, 0x35, 0xFF, 0xFF, 0xFF},
    {0x6D, 0x61, 0x69, 0x6E, 0x2E, 0x64, 0x2E, 0x76, 0x61, 0x6C, 0x3D, 0x32, 0x36, 0xFF, 0xFF, 0xFF},
    {0x6D, 0x61, 0x69, 0x6E, 0x2E, 0x64, 0x2E, 0x76, 0x61, 0x6C, 0x3D, 0x32, 0x37, 0xFF, 0xFF, 0xFF},
    {0x6D, 0x61, 0x69, 0x6E, 0x2E, 0x64, 0x2E, 0x76, 0x61, 0x6C, 0x3D, 0x32, 0x38, 0xFF, 0xFF, 0xFF},
    {0x6D, 0x61, 0x69, 0x6E, 0x2E, 0x64, 0x2E, 0x76, 0x61, 0x6C, 0x3D, 0x32, 0x39, 0xFF, 0xFF, 0xFF},

    {0x6D, 0x61, 0x69, 0x6E, 0x2E, 0x64, 0x2E, 0x76, 0x61, 0x6C, 0x3D, 0x33, 0x30, 0xFF, 0xFF, 0xFF}
};

uint8_t weight_100[][17] = {
    {0x6D, 0x61, 0x69, 0x6E, 0x2E, 0x77, 0x31, 0x2E, 0x76, 0x61, 0x6C, 0x3D, 0x36, 0x31, 0xFF, 0xFF, 0xFF}, //0
    {0x6D, 0x61, 0x69, 0x6E, 0x2E, 0x77, 0x31, 0x2E, 0x76, 0x61, 0x6C, 0x3D, 0x35, 0x30, 0xFF, 0xFF, 0xFF}, //1
    {0x6D, 0x61, 0x69, 0x6E, 0x2E, 0x77, 0x31, 0x2E, 0x76, 0x61, 0x6C, 0x3D, 0x35, 0x31, 0xFF, 0xFF, 0xFF}, //2
    {0x6D, 0x61, 0x69, 0x6E, 0x2E, 0x77, 0x31, 0x2E, 0x76, 0x61, 0x6C, 0x3D, 0x35, 0x32, 0xFF, 0xFF, 0xFF}, //3
    {0x6D, 0x61, 0x69, 0x6E, 0x2E, 0x77, 0x31, 0x2E, 0x76, 0x61, 0x6C, 0x3D, 0x35, 0x33, 0xFF, 0xFF, 0xFF}, //4
    {0x6D, 0x61, 0x69, 0x6E, 0x2E, 0x77, 0x31, 0x2E, 0x76, 0x61, 0x6C, 0x3D, 0x35, 0x34, 0xFF, 0xFF, 0xFF}, //5
    {0x6D, 0x61, 0x69, 0x6E, 0x2E, 0x77, 0x31, 0x2E, 0x76, 0x61, 0x6C, 0x3D, 0x35, 0x35, 0xFF, 0xFF, 0xFF}, //6
    {0x6D, 0x61, 0x69, 0x6E, 0x2E, 0x77, 0x31, 0x2E, 0x76, 0x61, 0x6C, 0x3D, 0x35, 0x36, 0xFF, 0xFF, 0xFF}, //7
    {0x6D, 0x61, 0x69, 0x6E, 0x2E, 0x77, 0x31, 0x2E, 0x76, 0x61, 0x6C, 0x3D, 0x35, 0x37, 0xFF, 0xFF, 0xFF}, //8
    {0x6D, 0x61, 0x69, 0x6E, 0x2E, 0x77, 0x31, 0x2E, 0x76, 0x61, 0x6C, 0x3D, 0x35, 0x38, 0xFF, 0xFF, 0xFF}, //9
    {0x6D, 0x61, 0x69, 0x6E, 0x2E, 0x77, 0x31, 0x2E, 0x76, 0x61, 0x6C, 0x3D, 0x36, 0x31, 0xFF, 0xFF, 0xFF} //EMPTY
};

uint8_t weight_10[][17] = {
    {0x6D, 0x61, 0x69, 0x6E, 0x2E, 0x77, 0x32, 0x2E, 0x76, 0x61, 0x6C, 0x3D, 0x36, 0x30, 0xFF, 0xFF, 0xFF}, //0
    {0x6D, 0x61, 0x69, 0x6E, 0x2E, 0x77, 0x32, 0x2E, 0x76, 0x61, 0x6C, 0x3D, 0x35, 0x30, 0xFF, 0xFF, 0xFF}, //1
    {0x6D, 0x61, 0x69, 0x6E, 0x2E, 0x77, 0x32, 0x2E, 0x76, 0x61, 0x6C, 0x3D, 0x35, 0x31, 0xFF, 0xFF, 0xFF}, //2
    {0x6D, 0x61, 0x69, 0x6E, 0x2E, 0x77, 0x32, 0x2E, 0x76, 0x61, 0x6C, 0x3D, 0x35, 0x32, 0xFF, 0xFF, 0xFF}, //3
    {0x6D, 0x61, 0x69, 0x6E, 0x2E, 0x77, 0x32, 0x2E, 0x76, 0x61, 0x6C, 0x3D, 0x35, 0x33, 0xFF, 0xFF, 0xFF}, //4
    {0x6D, 0x61, 0x69, 0x6E, 0x2E, 0x77, 0x32, 0x2E, 0x76, 0x61, 0x6C, 0x3D, 0x35, 0x34, 0xFF, 0xFF, 0xFF}, //5
    {0x6D, 0x61, 0x69, 0x6E, 0x2E, 0x77, 0x32, 0x2E, 0x76, 0x61, 0x6C, 0x3D, 0x35, 0x35, 0xFF, 0xFF, 0xFF}, //6
    {0x6D, 0x61, 0x69, 0x6E, 0x2E, 0x77, 0x32, 0x2E, 0x76, 0x61, 0x6C, 0x3D, 0x35, 0x36, 0xFF, 0xFF, 0xFF}, //7
    {0x6D, 0x61, 0x69, 0x6E, 0x2E, 0x77, 0x32, 0x2E, 0x76, 0x61, 0x6C, 0x3D, 0x35, 0x37, 0xFF, 0xFF, 0xFF}, //8
    {0x6D, 0x61, 0x69, 0x6E, 0x2E, 0x77, 0x32, 0x2E, 0x76, 0x61, 0x6C, 0x3D, 0x35, 0x38, 0xFF, 0xFF, 0xFF}, //9
    {0x6D, 0x61, 0x69, 0x6E, 0x2E, 0x77, 0x32, 0x2E, 0x76, 0x61, 0x6C, 0x3D, 0x36, 0x31, 0xFF, 0xFF, 0xFF} //EMPTY
};

uint8_t weight_1[][17] = {
    {0x6D, 0x61, 0x69, 0x6E, 0x2E, 0x77, 0x33, 0x2E, 0x76, 0x61, 0x6C, 0x3D, 0x36, 0x30, 0xFF, 0xFF, 0xFF}, //0
    {0x6D, 0x61, 0x69, 0x6E, 0x2E, 0x77, 0x33, 0x2E, 0x76, 0x61, 0x6C, 0x3D, 0x35, 0x30, 0xFF, 0xFF, 0xFF}, //1
    {0x6D, 0x61, 0x69, 0x6E, 0x2E, 0x77, 0x33, 0x2E, 0x76, 0x61, 0x6C, 0x3D, 0x35, 0x31, 0xFF, 0xFF, 0xFF}, //2
    {0x6D, 0x61, 0x69, 0x6E, 0x2E, 0x77, 0x33, 0x2E, 0x76, 0x61, 0x6C, 0x3D, 0x35, 0x32, 0xFF, 0xFF, 0xFF}, //3
    {0x6D, 0x61, 0x69, 0x6E, 0x2E, 0x77, 0x33, 0x2E, 0x76, 0x61, 0x6C, 0x3D, 0x35, 0x33, 0xFF, 0xFF, 0xFF}, //4
    {0x6D, 0x61, 0x69, 0x6E, 0x2E, 0x77, 0x33, 0x2E, 0x76, 0x61, 0x6C, 0x3D, 0x35, 0x34, 0xFF, 0xFF, 0xFF}, //5
    {0x6D, 0x61, 0x69, 0x6E, 0x2E, 0x77, 0x33, 0x2E, 0x76, 0x61, 0x6C, 0x3D, 0x35, 0x35, 0xFF, 0xFF, 0xFF}, //6
    {0x6D, 0x61, 0x69, 0x6E, 0x2E, 0x77, 0x33, 0x2E, 0x76, 0x61, 0x6C, 0x3D, 0x35, 0x36, 0xFF, 0xFF, 0xFF}, //7
    {0x6D, 0x61, 0x69, 0x6E, 0x2E, 0x77, 0x33, 0x2E, 0x76, 0x61, 0x6C, 0x3D, 0x35, 0x37, 0xFF, 0xFF, 0xFF}, //8
    {0x6D, 0x61, 0x69, 0x6E, 0x2E, 0x77, 0x33, 0x2E, 0x76, 0x61, 0x6C, 0x3D, 0x35, 0x38, 0xFF, 0xFF, 0xFF}, //9
    {0x6D, 0x61, 0x69, 0x6E, 0x2E, 0x77, 0x33, 0x2E, 0x76, 0x61, 0x6C, 0x3D, 0x36, 0x31, 0xFF, 0xFF, 0xFF}, //EMPTY


};

uint8_t arr_measunit[][16] = {
    {0x6D, 0x61, 0x69, 0x6E, 0x2E, 0x6D, 0x75, 0x2E, 0x76, 0x61, 0x6C, 0x3D, 0x30, 0xFF, 0xFF, 0xFF}, //0
    {0x6D, 0x61, 0x69, 0x6E, 0x2E, 0x6D, 0x75, 0x2E, 0x76, 0x61, 0x6C, 0x3D, 0x31, 0xFF, 0xFF, 0xFF}, //0
    {0x6D, 0x61, 0x69, 0x6E, 0x2E, 0x6D, 0x75, 0x2E, 0x76, 0x61, 0x6C, 0x3D, 0x32, 0xFF, 0xFF, 0xFF} //0
};


uint8_t chg_remaining_hour[][17] = {
    {0x6D, 0x61, 0x69, 0x6E, 0x2E, 0x63, 0x68, 0x2E, 0x76, 0x61, 0x6C, 0x3D, 0x30, 0xFF, 0xFF, 0xFF},
    {0x6D, 0x61, 0x69, 0x6E, 0x2E, 0x63, 0x68, 0x2E, 0x76, 0x61, 0x6C, 0x3D, 0x31, 0xFF, 0xFF, 0xFF},
    {0x6D, 0x61, 0x69, 0x6E, 0x2E, 0x63, 0x68, 0x2E, 0x76, 0x61, 0x6C, 0x3D, 0x32, 0xFF, 0xFF, 0xFF},
    {0x6D, 0x61, 0x69, 0x6E, 0x2E, 0x63, 0x68, 0x2E, 0x76, 0x61, 0x6C, 0x3D, 0x33, 0xFF, 0xFF, 0xFF},
    {0x6D, 0x61, 0x69, 0x6E, 0x2E, 0x63, 0x68, 0x2E, 0x76, 0x61, 0x6C, 0x3D, 0x34, 0xFF, 0xFF, 0xFF},
    {0x6D, 0x61, 0x69, 0x6E, 0x2E, 0x63, 0x68, 0x2E, 0x76, 0x61, 0x6C, 0x3D, 0x35, 0xFF, 0xFF, 0xFF},
    {0x6D, 0x61, 0x69, 0x6E, 0x2E, 0x63, 0x68, 0x2E, 0x76, 0x61, 0x6C, 0x3D, 0x36, 0xFF, 0xFF, 0xFF},
    {0x6D, 0x61, 0x69, 0x6E, 0x2E, 0x63, 0x68, 0x2E, 0x76, 0x61, 0x6C, 0x3D, 0x37, 0xFF, 0xFF, 0xFF},
    {0x6D, 0x61, 0x69, 0x6E, 0x2E, 0x63, 0x68, 0x2E, 0x76, 0x61, 0x6C, 0x3D, 0x38, 0xFF, 0xFF, 0xFF},
    {0x6D, 0x61, 0x69, 0x6E, 0x2E, 0x63, 0x68, 0x2E, 0x76, 0x61, 0x6C, 0x3D, 0x39, 0xFF, 0xFF, 0xFF},

    {0x6D, 0x61, 0x69, 0x6E, 0x2E, 0x63, 0x68, 0x2E, 0x76, 0x61, 0x6C, 0x3D, 0x31, 0x30, 0xFF, 0xFF, 0xFF},
    {0x6D, 0x61, 0x69, 0x6E, 0x2E, 0x63, 0x68, 0x2E, 0x76, 0x61, 0x6C, 0x3D, 0x31, 0x31, 0xFF, 0xFF, 0xFF},
    {0x6D, 0x61, 0x69, 0x6E, 0x2E, 0x63, 0x68, 0x2E, 0x76, 0x61, 0x6C, 0x3D, 0x31, 0x32, 0xFF, 0xFF, 0xFF},
    {0x6D, 0x61, 0x69, 0x6E, 0x2E, 0x63, 0x68, 0x2E, 0x76, 0x61, 0x6C, 0x3D, 0x31, 0x33, 0xFF, 0xFF, 0xFF},
    {0x6D, 0x61, 0x69, 0x6E, 0x2E, 0x63, 0x68, 0x2E, 0x76, 0x61, 0x6C, 0x3D, 0x31, 0x34, 0xFF, 0xFF, 0xFF},
    {0x6D, 0x61, 0x69, 0x6E, 0x2E, 0x63, 0x68, 0x2E, 0x76, 0x61, 0x6C, 0x3D, 0x31, 0x35, 0xFF, 0xFF, 0xFF},
    {0x6D, 0x61, 0x69, 0x6E, 0x2E, 0x63, 0x68, 0x2E, 0x76, 0x61, 0x6C, 0x3D, 0x31, 0x36, 0xFF, 0xFF, 0xFF},
    {0x6D, 0x61, 0x69, 0x6E, 0x2E, 0x63, 0x68, 0x2E, 0x76, 0x61, 0x6C, 0x3D, 0x31, 0x37, 0xFF, 0xFF, 0xFF},
    {0x6D, 0x61, 0x69, 0x6E, 0x2E, 0x63, 0x68, 0x2E, 0x76, 0x61, 0x6C, 0x3D, 0x31, 0x38, 0xFF, 0xFF, 0xFF},
    {0x6D, 0x61, 0x69, 0x6E, 0x2E, 0x63, 0x68, 0x2E, 0x76, 0x61, 0x6C, 0x3D, 0x31, 0x39, 0xFF, 0xFF, 0xFF},

    {0x6D, 0x61, 0x69, 0x6E, 0x2E, 0x63, 0x68, 0x2E, 0x76, 0x61, 0x6C, 0x3D, 0x32, 0x30, 0xFF, 0xFF, 0xFF},
    {0x6D, 0x61, 0x69, 0x6E, 0x2E, 0x63, 0x68, 0x2E, 0x76, 0x61, 0x6C, 0x3D, 0x32, 0x31, 0xFF, 0xFF, 0xFF},
    {0x6D, 0x61, 0x69, 0x6E, 0x2E, 0x63, 0x68, 0x2E, 0x76, 0x61, 0x6C, 0x3D, 0x32, 0x32, 0xFF, 0xFF, 0xFF},
    {0x6D, 0x61, 0x69, 0x6E, 0x2E, 0x63, 0x68, 0x2E, 0x76, 0x61, 0x6C, 0x3D, 0x32, 0x33, 0xFF, 0xFF, 0xFF},
    {0x6D, 0x61, 0x69, 0x6E, 0x2E, 0x63, 0x68, 0x2E, 0x76, 0x61, 0x6C, 0x3D, 0x32, 0x34, 0xFF, 0xFF, 0xFF},
    {0x6D, 0x61, 0x69, 0x6E, 0x2E, 0x63, 0x68, 0x2E, 0x76, 0x61, 0x6C, 0x3D, 0x32, 0x35, 0xFF, 0xFF, 0xFF},
    {0x6D, 0x61, 0x69, 0x6E, 0x2E, 0x63, 0x68, 0x2E, 0x76, 0x61, 0x6C, 0x3D, 0x32, 0x36, 0xFF, 0xFF, 0xFF},
    {0x6D, 0x61, 0x69, 0x6E, 0x2E, 0x63, 0x68, 0x2E, 0x76, 0x61, 0x6C, 0x3D, 0x32, 0x37, 0xFF, 0xFF, 0xFF},
    {0x6D, 0x61, 0x69, 0x6E, 0x2E, 0x63, 0x68, 0x2E, 0x76, 0x61, 0x6C, 0x3D, 0x32, 0x38, 0xFF, 0xFF, 0xFF},
    {0x6D, 0x61, 0x69, 0x6E, 0x2E, 0x63, 0x68, 0x2E, 0x76, 0x61, 0x6C, 0x3D, 0x32, 0x39, 0xFF, 0xFF, 0xFF},

    {0x6D, 0x61, 0x69, 0x6E, 0x2E, 0x63, 0x68, 0x2E, 0x76, 0x61, 0x6C, 0x3D, 0x33, 0x30, 0xFF, 0xFF, 0xFF},
    {0x6D, 0x61, 0x69, 0x6E, 0x2E, 0x63, 0x68, 0x2E, 0x76, 0x61, 0x6C, 0x3D, 0x33, 0x31, 0xFF, 0xFF, 0xFF},
    {0x6D, 0x61, 0x69, 0x6E, 0x2E, 0x63, 0x68, 0x2E, 0x76, 0x61, 0x6C, 0x3D, 0x33, 0x32, 0xFF, 0xFF, 0xFF},
    {0x6D, 0x61, 0x69, 0x6E, 0x2E, 0x63, 0x68, 0x2E, 0x76, 0x61, 0x6C, 0x3D, 0x33, 0x33, 0xFF, 0xFF, 0xFF},
    {0x6D, 0x61, 0x69, 0x6E, 0x2E, 0x63, 0x68, 0x2E, 0x76, 0x61, 0x6C, 0x3D, 0x33, 0x34, 0xFF, 0xFF, 0xFF},
    {0x6D, 0x61, 0x69, 0x6E, 0x2E, 0x63, 0x68, 0x2E, 0x76, 0x61, 0x6C, 0x3D, 0x33, 0x35, 0xFF, 0xFF, 0xFF},
    {0x6D, 0x61, 0x69, 0x6E, 0x2E, 0x63, 0x68, 0x2E, 0x76, 0x61, 0x6C, 0x3D, 0x33, 0x36, 0xFF, 0xFF, 0xFF},
    {0x6D, 0x61, 0x69, 0x6E, 0x2E, 0x63, 0x68, 0x2E, 0x76, 0x61, 0x6C, 0x3D, 0x33, 0x37, 0xFF, 0xFF, 0xFF},
    {0x6D, 0x61, 0x69, 0x6E, 0x2E, 0x63, 0x68, 0x2E, 0x76, 0x61, 0x6C, 0x3D, 0x33, 0x38, 0xFF, 0xFF, 0xFF},
    {0x6D, 0x61, 0x69, 0x6E, 0x2E, 0x63, 0x68, 0x2E, 0x76, 0x61, 0x6C, 0x3D, 0x33, 0x39, 0xFF, 0xFF, 0xFF},

    {0x6D, 0x61, 0x69, 0x6E, 0x2E, 0x63, 0x68, 0x2E, 0x76, 0x61, 0x6C, 0x3D, 0x34, 0x30, 0xFF, 0xFF, 0xFF},
    {0x6D, 0x61, 0x69, 0x6E, 0x2E, 0x63, 0x68, 0x2E, 0x76, 0x61, 0x6C, 0x3D, 0x34, 0x31, 0xFF, 0xFF, 0xFF},
    {0x6D, 0x61, 0x69, 0x6E, 0x2E, 0x63, 0x68, 0x2E, 0x76, 0x61, 0x6C, 0x3D, 0x34, 0x32, 0xFF, 0xFF, 0xFF},
    {0x6D, 0x61, 0x69, 0x6E, 0x2E, 0x63, 0x68, 0x2E, 0x76, 0x61, 0x6C, 0x3D, 0x34, 0x33, 0xFF, 0xFF, 0xFF},
    {0x6D, 0x61, 0x69, 0x6E, 0x2E, 0x63, 0x68, 0x2E, 0x76, 0x61, 0x6C, 0x3D, 0x34, 0x34, 0xFF, 0xFF, 0xFF},
    {0x6D, 0x61, 0x69, 0x6E, 0x2E, 0x63, 0x68, 0x2E, 0x76, 0x61, 0x6C, 0x3D, 0x34, 0x35, 0xFF, 0xFF, 0xFF},
    {0x6D, 0x61, 0x69, 0x6E, 0x2E, 0x63, 0x68, 0x2E, 0x76, 0x61, 0x6C, 0x3D, 0x34, 0x36, 0xFF, 0xFF, 0xFF},
    {0x6D, 0x61, 0x69, 0x6E, 0x2E, 0x63, 0x68, 0x2E, 0x76, 0x61, 0x6C, 0x3D, 0x34, 0x37, 0xFF, 0xFF, 0xFF},
    {0x6D, 0x61, 0x69, 0x6E, 0x2E, 0x63, 0x68, 0x2E, 0x76, 0x61, 0x6C, 0x3D, 0x34, 0x38, 0xFF, 0xFF, 0xFF},
    {0x6D, 0x61, 0x69, 0x6E, 0x2E, 0x63, 0x68, 0x2E, 0x76, 0x61, 0x6C, 0x3D, 0x34, 0x39, 0xFF, 0xFF, 0xFF},

    {0x6D, 0x61, 0x69, 0x6E, 0x2E, 0x63, 0x68, 0x2E, 0x76, 0x61, 0x6C, 0x3D, 0x35, 0x30, 0xFF, 0xFF, 0xFF},
    {0x6D, 0x61, 0x69, 0x6E, 0x2E, 0x63, 0x68, 0x2E, 0x76, 0x61, 0x6C, 0x3D, 0x35, 0x31, 0xFF, 0xFF, 0xFF},
    {0x6D, 0x61, 0x69, 0x6E, 0x2E, 0x63, 0x68, 0x2E, 0x76, 0x61, 0x6C, 0x3D, 0x35, 0x32, 0xFF, 0xFF, 0xFF},
    {0x6D, 0x61, 0x69, 0x6E, 0x2E, 0x63, 0x68, 0x2E, 0x76, 0x61, 0x6C, 0x3D, 0x35, 0x33, 0xFF, 0xFF, 0xFF},
    {0x6D, 0x61, 0x69, 0x6E, 0x2E, 0x63, 0x68, 0x2E, 0x76, 0x61, 0x6C, 0x3D, 0x35, 0x34, 0xFF, 0xFF, 0xFF},
    {0x6D, 0x61, 0x69, 0x6E, 0x2E, 0x63, 0x68, 0x2E, 0x76, 0x61, 0x6C, 0x3D, 0x35, 0x35, 0xFF, 0xFF, 0xFF},
    {0x6D, 0x61, 0x69, 0x6E, 0x2E, 0x63, 0x68, 0x2E, 0x76, 0x61, 0x6C, 0x3D, 0x35, 0x36, 0xFF, 0xFF, 0xFF},
    {0x6D, 0x61, 0x69, 0x6E, 0x2E, 0x63, 0x68, 0x2E, 0x76, 0x61, 0x6C, 0x3D, 0x35, 0x37, 0xFF, 0xFF, 0xFF},
    {0x6D, 0x61, 0x69, 0x6E, 0x2E, 0x63, 0x68, 0x2E, 0x76, 0x61, 0x6C, 0x3D, 0x35, 0x38, 0xFF, 0xFF, 0xFF},
    {0x6D, 0x61, 0x69, 0x6E, 0x2E, 0x63, 0x68, 0x2E, 0x76, 0x61, 0x6C, 0x3D, 0x35, 0x39, 0xFF, 0xFF, 0xFF},

    {0x6D, 0x61, 0x69, 0x6E, 0x2E, 0x63, 0x68, 0x2E, 0x76, 0x61, 0x6C, 0x3D, 0x35, 0x30, 0xFF, 0xFF, 0xFF},
    {0x6D, 0x61, 0x69, 0x6E, 0x2E, 0x63, 0x68, 0x2E, 0x76, 0x61, 0x6C, 0x3D, 0x35, 0x31, 0xFF, 0xFF, 0xFF},
    {0x6D, 0x61, 0x69, 0x6E, 0x2E, 0x63, 0x68, 0x2E, 0x76, 0x61, 0x6C, 0x3D, 0x35, 0x32, 0xFF, 0xFF, 0xFF},
    {0x6D, 0x61, 0x69, 0x6E, 0x2E, 0x63, 0x68, 0x2E, 0x76, 0x61, 0x6C, 0x3D, 0x35, 0x33, 0xFF, 0xFF, 0xFF},
    {0x6D, 0x61, 0x69, 0x6E, 0x2E, 0x63, 0x68, 0x2E, 0x76, 0x61, 0x6C, 0x3D, 0x35, 0x34, 0xFF, 0xFF, 0xFF},
    {0x6D, 0x61, 0x69, 0x6E, 0x2E, 0x63, 0x68, 0x2E, 0x76, 0x61, 0x6C, 0x3D, 0x35, 0x35, 0xFF, 0xFF, 0xFF},
    {0x6D, 0x61, 0x69, 0x6E, 0x2E, 0x63, 0x68, 0x2E, 0x76, 0x61, 0x6C, 0x3D, 0x35, 0x36, 0xFF, 0xFF, 0xFF},
    {0x6D, 0x61, 0x69, 0x6E, 0x2E, 0x63, 0x68, 0x2E, 0x76, 0x61, 0x6C, 0x3D, 0x35, 0x37, 0xFF, 0xFF, 0xFF},
    {0x6D, 0x61, 0x69, 0x6E, 0x2E, 0x63, 0x68, 0x2E, 0x76, 0x61, 0x6C, 0x3D, 0x35, 0x38, 0xFF, 0xFF, 0xFF},
    {0x6D, 0x61, 0x69, 0x6E, 0x2E, 0x63, 0x68, 0x2E, 0x76, 0x61, 0x6C, 0x3D, 0x35, 0x39, 0xFF, 0xFF, 0xFF},

    {0x6D, 0x61, 0x69, 0x6E, 0x2E, 0x63, 0x68, 0x2E, 0x76, 0x61, 0x6C, 0x3D, 0x35, 0x30, 0xFF, 0xFF, 0xFF},
    {0x6D, 0x61, 0x69, 0x6E, 0x2E, 0x63, 0x68, 0x2E, 0x76, 0x61, 0x6C, 0x3D, 0x35, 0x31, 0xFF, 0xFF, 0xFF},
    {0x6D, 0x61, 0x69, 0x6E, 0x2E, 0x63, 0x68, 0x2E, 0x76, 0x61, 0x6C, 0x3D, 0x35, 0x32, 0xFF, 0xFF, 0xFF},
    {0x6D, 0x61, 0x69, 0x6E, 0x2E, 0x63, 0x68, 0x2E, 0x76, 0x61, 0x6C, 0x3D, 0x35, 0x33, 0xFF, 0xFF, 0xFF},
    {0x6D, 0x61, 0x69, 0x6E, 0x2E, 0x63, 0x68, 0x2E, 0x76, 0x61, 0x6C, 0x3D, 0x35, 0x34, 0xFF, 0xFF, 0xFF},
    {0x6D, 0x61, 0x69, 0x6E, 0x2E, 0x63, 0x68, 0x2E, 0x76, 0x61, 0x6C, 0x3D, 0x35, 0x35, 0xFF, 0xFF, 0xFF},
    {0x6D, 0x61, 0x69, 0x6E, 0x2E, 0x63, 0x68, 0x2E, 0x76, 0x61, 0x6C, 0x3D, 0x35, 0x36, 0xFF, 0xFF, 0xFF},
    {0x6D, 0x61, 0x69, 0x6E, 0x2E, 0x63, 0x68, 0x2E, 0x76, 0x61, 0x6C, 0x3D, 0x35, 0x37, 0xFF, 0xFF, 0xFF},
    {0x6D, 0x61, 0x69, 0x6E, 0x2E, 0x63, 0x68, 0x2E, 0x76, 0x61, 0x6C, 0x3D, 0x35, 0x38, 0xFF, 0xFF, 0xFF},
    {0x6D, 0x61, 0x69, 0x6E, 0x2E, 0x63, 0x68, 0x2E, 0x76, 0x61, 0x6C, 0x3D, 0x35, 0x39, 0xFF, 0xFF, 0xFF},

    {0x6D, 0x61, 0x69, 0x6E, 0x2E, 0x63, 0x68, 0x2E, 0x76, 0x61, 0x6C, 0x3D, 0x36, 0x30, 0xFF, 0xFF, 0xFF},
    {0x6D, 0x61, 0x69, 0x6E, 0x2E, 0x63, 0x68, 0x2E, 0x76, 0x61, 0x6C, 0x3D, 0x36, 0x31, 0xFF, 0xFF, 0xFF},
    {0x6D, 0x61, 0x69, 0x6E, 0x2E, 0x63, 0x68, 0x2E, 0x76, 0x61, 0x6C, 0x3D, 0x36, 0x32, 0xFF, 0xFF, 0xFF},
    {0x6D, 0x61, 0x69, 0x6E, 0x2E, 0x63, 0x68, 0x2E, 0x76, 0x61, 0x6C, 0x3D, 0x36, 0x33, 0xFF, 0xFF, 0xFF},
    {0x6D, 0x61, 0x69, 0x6E, 0x2E, 0x63, 0x68, 0x2E, 0x76, 0x61, 0x6C, 0x3D, 0x36, 0x34, 0xFF, 0xFF, 0xFF},
    {0x6D, 0x61, 0x69, 0x6E, 0x2E, 0x63, 0x68, 0x2E, 0x76, 0x61, 0x6C, 0x3D, 0x36, 0x35, 0xFF, 0xFF, 0xFF},
    {0x6D, 0x61, 0x69, 0x6E, 0x2E, 0x63, 0x68, 0x2E, 0x76, 0x61, 0x6C, 0x3D, 0x36, 0x36, 0xFF, 0xFF, 0xFF},
    {0x6D, 0x61, 0x69, 0x6E, 0x2E, 0x63, 0x68, 0x2E, 0x76, 0x61, 0x6C, 0x3D, 0x36, 0x37, 0xFF, 0xFF, 0xFF},
    {0x6D, 0x61, 0x69, 0x6E, 0x2E, 0x63, 0x68, 0x2E, 0x76, 0x61, 0x6C, 0x3D, 0x36, 0x38, 0xFF, 0xFF, 0xFF},
    {0x6D, 0x61, 0x69, 0x6E, 0x2E, 0x63, 0x68, 0x2E, 0x76, 0x61, 0x6C, 0x3D, 0x36, 0x39, 0xFF, 0xFF, 0xFF},

    {0x6D, 0x61, 0x69, 0x6E, 0x2E, 0x63, 0x68, 0x2E, 0x76, 0x61, 0x6C, 0x3D, 0x37, 0x30, 0xFF, 0xFF, 0xFF},
    {0x6D, 0x61, 0x69, 0x6E, 0x2E, 0x63, 0x68, 0x2E, 0x76, 0x61, 0x6C, 0x3D, 0x37, 0x31, 0xFF, 0xFF, 0xFF},
    {0x6D, 0x61, 0x69, 0x6E, 0x2E, 0x63, 0x68, 0x2E, 0x76, 0x61, 0x6C, 0x3D, 0x37, 0x32, 0xFF, 0xFF, 0xFF},
    {0x6D, 0x61, 0x69, 0x6E, 0x2E, 0x63, 0x68, 0x2E, 0x76, 0x61, 0x6C, 0x3D, 0x37, 0x33, 0xFF, 0xFF, 0xFF},
    {0x6D, 0x61, 0x69, 0x6E, 0x2E, 0x63, 0x68, 0x2E, 0x76, 0x61, 0x6C, 0x3D, 0x37, 0x34, 0xFF, 0xFF, 0xFF},
    {0x6D, 0x61, 0x69, 0x6E, 0x2E, 0x63, 0x68, 0x2E, 0x76, 0x61, 0x6C, 0x3D, 0x37, 0x35, 0xFF, 0xFF, 0xFF},
    {0x6D, 0x61, 0x69, 0x6E, 0x2E, 0x63, 0x68, 0x2E, 0x76, 0x61, 0x6C, 0x3D, 0x37, 0x36, 0xFF, 0xFF, 0xFF},
    {0x6D, 0x61, 0x69, 0x6E, 0x2E, 0x63, 0x68, 0x2E, 0x76, 0x61, 0x6C, 0x3D, 0x37, 0x37, 0xFF, 0xFF, 0xFF},
    {0x6D, 0x61, 0x69, 0x6E, 0x2E, 0x63, 0x68, 0x2E, 0x76, 0x61, 0x6C, 0x3D, 0x37, 0x38, 0xFF, 0xFF, 0xFF},
    {0x6D, 0x61, 0x69, 0x6E, 0x2E, 0x63, 0x68, 0x2E, 0x76, 0x61, 0x6C, 0x3D, 0x37, 0x39, 0xFF, 0xFF, 0xFF},

    {0x6D, 0x61, 0x69, 0x6E, 0x2E, 0x63, 0x68, 0x2E, 0x76, 0x61, 0x6C, 0x3D, 0x38, 0x30, 0xFF, 0xFF, 0xFF},
    {0x6D, 0x61, 0x69, 0x6E, 0x2E, 0x63, 0x68, 0x2E, 0x76, 0x61, 0x6C, 0x3D, 0x38, 0x31, 0xFF, 0xFF, 0xFF},
    {0x6D, 0x61, 0x69, 0x6E, 0x2E, 0x63, 0x68, 0x2E, 0x76, 0x61, 0x6C, 0x3D, 0x38, 0x32, 0xFF, 0xFF, 0xFF},
    {0x6D, 0x61, 0x69, 0x6E, 0x2E, 0x63, 0x68, 0x2E, 0x76, 0x61, 0x6C, 0x3D, 0x38, 0x33, 0xFF, 0xFF, 0xFF},
    {0x6D, 0x61, 0x69, 0x6E, 0x2E, 0x63, 0x68, 0x2E, 0x76, 0x61, 0x6C, 0x3D, 0x38, 0x34, 0xFF, 0xFF, 0xFF},
    {0x6D, 0x61, 0x69, 0x6E, 0x2E, 0x63, 0x68, 0x2E, 0x76, 0x61, 0x6C, 0x3D, 0x38, 0x35, 0xFF, 0xFF, 0xFF},
    {0x6D, 0x61, 0x69, 0x6E, 0x2E, 0x63, 0x68, 0x2E, 0x76, 0x61, 0x6C, 0x3D, 0x38, 0x36, 0xFF, 0xFF, 0xFF},
    {0x6D, 0x61, 0x69, 0x6E, 0x2E, 0x63, 0x68, 0x2E, 0x76, 0x61, 0x6C, 0x3D, 0x38, 0x37, 0xFF, 0xFF, 0xFF},
    {0x6D, 0x61, 0x69, 0x6E, 0x2E, 0x63, 0x68, 0x2E, 0x76, 0x61, 0x6C, 0x3D, 0x38, 0x38, 0xFF, 0xFF, 0xFF},
    {0x6D, 0x61, 0x69, 0x6E, 0x2E, 0x63, 0x68, 0x2E, 0x76, 0x61, 0x6C, 0x3D, 0x38, 0x39, 0xFF, 0xFF, 0xFF},

    {0x6D, 0x61, 0x69, 0x6E, 0x2E, 0x63, 0x68, 0x2E, 0x76, 0x61, 0x6C, 0x3D, 0x39, 0x30, 0xFF, 0xFF, 0xFF},
    {0x6D, 0x61, 0x69, 0x6E, 0x2E, 0x63, 0x68, 0x2E, 0x76, 0x61, 0x6C, 0x3D, 0x39, 0x31, 0xFF, 0xFF, 0xFF},
    {0x6D, 0x61, 0x69, 0x6E, 0x2E, 0x63, 0x68, 0x2E, 0x76, 0x61, 0x6C, 0x3D, 0x39, 0x32, 0xFF, 0xFF, 0xFF},
    {0x6D, 0x61, 0x69, 0x6E, 0x2E, 0x63, 0x68, 0x2E, 0x76, 0x61, 0x6C, 0x3D, 0x39, 0x33, 0xFF, 0xFF, 0xFF},
    {0x6D, 0x61, 0x69, 0x6E, 0x2E, 0x63, 0x68, 0x2E, 0x76, 0x61, 0x6C, 0x3D, 0x39, 0x34, 0xFF, 0xFF, 0xFF},
    {0x6D, 0x61, 0x69, 0x6E, 0x2E, 0x63, 0x68, 0x2E, 0x76, 0x61, 0x6C, 0x3D, 0x39, 0x35, 0xFF, 0xFF, 0xFF},
    {0x6D, 0x61, 0x69, 0x6E, 0x2E, 0x63, 0x68, 0x2E, 0x76, 0x61, 0x6C, 0x3D, 0x39, 0x36, 0xFF, 0xFF, 0xFF},
    {0x6D, 0x61, 0x69, 0x6E, 0x2E, 0x63, 0x68, 0x2E, 0x76, 0x61, 0x6C, 0x3D, 0x39, 0x37, 0xFF, 0xFF, 0xFF},
    {0x6D, 0x61, 0x69, 0x6E, 0x2E, 0x63, 0x68, 0x2E, 0x76, 0x61, 0x6C, 0x3D, 0x39, 0x38, 0xFF, 0xFF, 0xFF},
    {0x6D, 0x61, 0x69, 0x6E, 0x2E, 0x63, 0x68, 0x2E, 0x76, 0x61, 0x6C, 0x3D, 0x39, 0x39, 0xFF, 0xFF, 0xFF}
};

uint8_t chg_remaining_min[][17] = {
    {0x6D, 0x61, 0x69, 0x6E, 0x2E, 0x63, 0x6D, 0x2E, 0x76, 0x61, 0x6C, 0x3D, 0x30, 0xFF, 0xFF, 0xFF},
    {0x6D, 0x61, 0x69, 0x6E, 0x2E, 0x63, 0x6D, 0x2E, 0x76, 0x61, 0x6C, 0x3D, 0x31, 0xFF, 0xFF, 0xFF},
    {0x6D, 0x61, 0x69, 0x6E, 0x2E, 0x63, 0x6D, 0x2E, 0x76, 0x61, 0x6C, 0x3D, 0x32, 0xFF, 0xFF, 0xFF},
    {0x6D, 0x61, 0x69, 0x6E, 0x2E, 0x63, 0x6D, 0x2E, 0x76, 0x61, 0x6C, 0x3D, 0x33, 0xFF, 0xFF, 0xFF},
    {0x6D, 0x61, 0x69, 0x6E, 0x2E, 0x63, 0x6D, 0x2E, 0x76, 0x61, 0x6C, 0x3D, 0x34, 0xFF, 0xFF, 0xFF},
    {0x6D, 0x61, 0x69, 0x6E, 0x2E, 0x63, 0x6D, 0x2E, 0x76, 0x61, 0x6C, 0x3D, 0x35, 0xFF, 0xFF, 0xFF},
    {0x6D, 0x61, 0x69, 0x6E, 0x2E, 0x63, 0x6D, 0x2E, 0x76, 0x61, 0x6C, 0x3D, 0x36, 0xFF, 0xFF, 0xFF},
    {0x6D, 0x61, 0x69, 0x6E, 0x2E, 0x63, 0x6D, 0x2E, 0x76, 0x61, 0x6C, 0x3D, 0x37, 0xFF, 0xFF, 0xFF},
    {0x6D, 0x61, 0x69, 0x6E, 0x2E, 0x63, 0x6D, 0x2E, 0x76, 0x61, 0x6C, 0x3D, 0x38, 0xFF, 0xFF, 0xFF},
    {0x6D, 0x61, 0x69, 0x6E, 0x2E, 0x63, 0x6D, 0x2E, 0x76, 0x61, 0x6C, 0x3D, 0x39, 0xFF, 0xFF, 0xFF},

    {0x6D, 0x61, 0x69, 0x6E, 0x2E, 0x63, 0x6D, 0x2E, 0x76, 0x61, 0x6C, 0x3D, 0x31, 0x30, 0xFF, 0xFF, 0xFF},
    {0x6D, 0x61, 0x69, 0x6E, 0x2E, 0x63, 0x6D, 0x2E, 0x76, 0x61, 0x6C, 0x3D, 0x31, 0x31, 0xFF, 0xFF, 0xFF},
    {0x6D, 0x61, 0x69, 0x6E, 0x2E, 0x63, 0x6D, 0x2E, 0x76, 0x61, 0x6C, 0x3D, 0x31, 0x32, 0xFF, 0xFF, 0xFF},
    {0x6D, 0x61, 0x69, 0x6E, 0x2E, 0x63, 0x6D, 0x2E, 0x76, 0x61, 0x6C, 0x3D, 0x31, 0x33, 0xFF, 0xFF, 0xFF},
    {0x6D, 0x61, 0x69, 0x6E, 0x2E, 0x63, 0x6D, 0x2E, 0x76, 0x61, 0x6C, 0x3D, 0x31, 0x34, 0xFF, 0xFF, 0xFF},
    {0x6D, 0x61, 0x69, 0x6E, 0x2E, 0x63, 0x6D, 0x2E, 0x76, 0x61, 0x6C, 0x3D, 0x31, 0x35, 0xFF, 0xFF, 0xFF},
    {0x6D, 0x61, 0x69, 0x6E, 0x2E, 0x63, 0x6D, 0x2E, 0x76, 0x61, 0x6C, 0x3D, 0x31, 0x36, 0xFF, 0xFF, 0xFF},
    {0x6D, 0x61, 0x69, 0x6E, 0x2E, 0x63, 0x6D, 0x2E, 0x76, 0x61, 0x6C, 0x3D, 0x31, 0x37, 0xFF, 0xFF, 0xFF},
    {0x6D, 0x61, 0x69, 0x6E, 0x2E, 0x63, 0x6D, 0x2E, 0x76, 0x61, 0x6C, 0x3D, 0x31, 0x38, 0xFF, 0xFF, 0xFF},
    {0x6D, 0x61, 0x69, 0x6E, 0x2E, 0x63, 0x6D, 0x2E, 0x76, 0x61, 0x6C, 0x3D, 0x31, 0x39, 0xFF, 0xFF, 0xFF},

    {0x6D, 0x61, 0x69, 0x6E, 0x2E, 0x63, 0x6D, 0x2E, 0x76, 0x61, 0x6C, 0x3D, 0x32, 0x30, 0xFF, 0xFF, 0xFF},
    {0x6D, 0x61, 0x69, 0x6E, 0x2E, 0x63, 0x6D, 0x2E, 0x76, 0x61, 0x6C, 0x3D, 0x32, 0x31, 0xFF, 0xFF, 0xFF},
    {0x6D, 0x61, 0x69, 0x6E, 0x2E, 0x63, 0x6D, 0x2E, 0x76, 0x61, 0x6C, 0x3D, 0x32, 0x32, 0xFF, 0xFF, 0xFF},
    {0x6D, 0x61, 0x69, 0x6E, 0x2E, 0x63, 0x6D, 0x2E, 0x76, 0x61, 0x6C, 0x3D, 0x32, 0x33, 0xFF, 0xFF, 0xFF},
    {0x6D, 0x61, 0x69, 0x6E, 0x2E, 0x63, 0x6D, 0x2E, 0x76, 0x61, 0x6C, 0x3D, 0x32, 0x34, 0xFF, 0xFF, 0xFF},
    {0x6D, 0x61, 0x69, 0x6E, 0x2E, 0x63, 0x6D, 0x2E, 0x76, 0x61, 0x6C, 0x3D, 0x32, 0x35, 0xFF, 0xFF, 0xFF},
    {0x6D, 0x61, 0x69, 0x6E, 0x2E, 0x63, 0x6D, 0x2E, 0x76, 0x61, 0x6C, 0x3D, 0x32, 0x36, 0xFF, 0xFF, 0xFF},
    {0x6D, 0x61, 0x69, 0x6E, 0x2E, 0x63, 0x6D, 0x2E, 0x76, 0x61, 0x6C, 0x3D, 0x32, 0x37, 0xFF, 0xFF, 0xFF},
    {0x6D, 0x61, 0x69, 0x6E, 0x2E, 0x63, 0x6D, 0x2E, 0x76, 0x61, 0x6C, 0x3D, 0x32, 0x38, 0xFF, 0xFF, 0xFF},
    {0x6D, 0x61, 0x69, 0x6E, 0x2E, 0x63, 0x6D, 0x2E, 0x76, 0x61, 0x6C, 0x3D, 0x32, 0x39, 0xFF, 0xFF, 0xFF},

    {0x6D, 0x61, 0x69, 0x6E, 0x2E, 0x63, 0x6D, 0x2E, 0x76, 0x61, 0x6C, 0x3D, 0x33, 0x30, 0xFF, 0xFF, 0xFF},
    {0x6D, 0x61, 0x69, 0x6E, 0x2E, 0x63, 0x6D, 0x2E, 0x76, 0x61, 0x6C, 0x3D, 0x33, 0x31, 0xFF, 0xFF, 0xFF},
    {0x6D, 0x61, 0x69, 0x6E, 0x2E, 0x63, 0x6D, 0x2E, 0x76, 0x61, 0x6C, 0x3D, 0x33, 0x32, 0xFF, 0xFF, 0xFF},
    {0x6D, 0x61, 0x69, 0x6E, 0x2E, 0x63, 0x6D, 0x2E, 0x76, 0x61, 0x6C, 0x3D, 0x33, 0x33, 0xFF, 0xFF, 0xFF},
    {0x6D, 0x61, 0x69, 0x6E, 0x2E, 0x63, 0x6D, 0x2E, 0x76, 0x61, 0x6C, 0x3D, 0x33, 0x34, 0xFF, 0xFF, 0xFF},
    {0x6D, 0x61, 0x69, 0x6E, 0x2E, 0x63, 0x6D, 0x2E, 0x76, 0x61, 0x6C, 0x3D, 0x33, 0x35, 0xFF, 0xFF, 0xFF},
    {0x6D, 0x61, 0x69, 0x6E, 0x2E, 0x63, 0x6D, 0x2E, 0x76, 0x61, 0x6C, 0x3D, 0x33, 0x36, 0xFF, 0xFF, 0xFF},
    {0x6D, 0x61, 0x69, 0x6E, 0x2E, 0x63, 0x6D, 0x2E, 0x76, 0x61, 0x6C, 0x3D, 0x33, 0x37, 0xFF, 0xFF, 0xFF},
    {0x6D, 0x61, 0x69, 0x6E, 0x2E, 0x63, 0x6D, 0x2E, 0x76, 0x61, 0x6C, 0x3D, 0x33, 0x38, 0xFF, 0xFF, 0xFF},
    {0x6D, 0x61, 0x69, 0x6E, 0x2E, 0x63, 0x6D, 0x2E, 0x76, 0x61, 0x6C, 0x3D, 0x33, 0x39, 0xFF, 0xFF, 0xFF},

    {0x6D, 0x61, 0x69, 0x6E, 0x2E, 0x63, 0x6D, 0x2E, 0x76, 0x61, 0x6C, 0x3D, 0x34, 0x30, 0xFF, 0xFF, 0xFF},
    {0x6D, 0x61, 0x69, 0x6E, 0x2E, 0x63, 0x6D, 0x2E, 0x76, 0x61, 0x6C, 0x3D, 0x34, 0x31, 0xFF, 0xFF, 0xFF},
    {0x6D, 0x61, 0x69, 0x6E, 0x2E, 0x63, 0x6D, 0x2E, 0x76, 0x61, 0x6C, 0x3D, 0x34, 0x32, 0xFF, 0xFF, 0xFF},
    {0x6D, 0x61, 0x69, 0x6E, 0x2E, 0x63, 0x6D, 0x2E, 0x76, 0x61, 0x6C, 0x3D, 0x34, 0x33, 0xFF, 0xFF, 0xFF},
    {0x6D, 0x61, 0x69, 0x6E, 0x2E, 0x63, 0x6D, 0x2E, 0x76, 0x61, 0x6C, 0x3D, 0x34, 0x34, 0xFF, 0xFF, 0xFF},
    {0x6D, 0x61, 0x69, 0x6E, 0x2E, 0x63, 0x6D, 0x2E, 0x76, 0x61, 0x6C, 0x3D, 0x34, 0x35, 0xFF, 0xFF, 0xFF},
    {0x6D, 0x61, 0x69, 0x6E, 0x2E, 0x63, 0x6D, 0x2E, 0x76, 0x61, 0x6C, 0x3D, 0x34, 0x36, 0xFF, 0xFF, 0xFF},
    {0x6D, 0x61, 0x69, 0x6E, 0x2E, 0x63, 0x6D, 0x2E, 0x76, 0x61, 0x6C, 0x3D, 0x34, 0x37, 0xFF, 0xFF, 0xFF},
    {0x6D, 0x61, 0x69, 0x6E, 0x2E, 0x63, 0x6D, 0x2E, 0x76, 0x61, 0x6C, 0x3D, 0x34, 0x38, 0xFF, 0xFF, 0xFF},
    {0x6D, 0x61, 0x69, 0x6E, 0x2E, 0x63, 0x6D, 0x2E, 0x76, 0x61, 0x6C, 0x3D, 0x34, 0x39, 0xFF, 0xFF, 0xFF},

    {0x6D, 0x61, 0x69, 0x6E, 0x2E, 0x63, 0x6D, 0x2E, 0x76, 0x61, 0x6C, 0x3D, 0x35, 0x30, 0xFF, 0xFF, 0xFF},
    {0x6D, 0x61, 0x69, 0x6E, 0x2E, 0x63, 0x6D, 0x2E, 0x76, 0x61, 0x6C, 0x3D, 0x35, 0x31, 0xFF, 0xFF, 0xFF},
    {0x6D, 0x61, 0x69, 0x6E, 0x2E, 0x63, 0x6D, 0x2E, 0x76, 0x61, 0x6C, 0x3D, 0x35, 0x32, 0xFF, 0xFF, 0xFF},
    {0x6D, 0x61, 0x69, 0x6E, 0x2E, 0x63, 0x6D, 0x2E, 0x76, 0x61, 0x6C, 0x3D, 0x35, 0x33, 0xFF, 0xFF, 0xFF},
    {0x6D, 0x61, 0x69, 0x6E, 0x2E, 0x63, 0x6D, 0x2E, 0x76, 0x61, 0x6C, 0x3D, 0x35, 0x34, 0xFF, 0xFF, 0xFF},
    {0x6D, 0x61, 0x69, 0x6E, 0x2E, 0x63, 0x6D, 0x2E, 0x76, 0x61, 0x6C, 0x3D, 0x35, 0x35, 0xFF, 0xFF, 0xFF},
    {0x6D, 0x61, 0x69, 0x6E, 0x2E, 0x63, 0x6D, 0x2E, 0x76, 0x61, 0x6C, 0x3D, 0x35, 0x36, 0xFF, 0xFF, 0xFF},
    {0x6D, 0x61, 0x69, 0x6E, 0x2E, 0x63, 0x6D, 0x2E, 0x76, 0x61, 0x6C, 0x3D, 0x35, 0x37, 0xFF, 0xFF, 0xFF},
    {0x6D, 0x61, 0x69, 0x6E, 0x2E, 0x63, 0x6D, 0x2E, 0x76, 0x61, 0x6C, 0x3D, 0x35, 0x38, 0xFF, 0xFF, 0xFF},
    {0x6D, 0x61, 0x69, 0x6E, 0x2E, 0x63, 0x6D, 0x2E, 0x76, 0x61, 0x6C, 0x3D, 0x35, 0x39, 0xFF, 0xFF, 0xFF}
};


uint8_t serial_header[14] = {0x6D, 0x61, 0x69, 0x6E, 0x2E, 0x73, 0x6E, 0x6F, 0x2E, 0x74, 0x78, 0x74, 0x3D, 0x22};
uint8_t serial_footer[4] = {0x22, 0xFF, 0xFF, 0xFF};
